00000000000100000000000000101100111111111111110100000000010111011111111111111100000000010111011111111111111111010000000001011100
11111111111110010000000000000000000000000000000000000000000000000000000000000000000000000000000000000000000000000000000000000000
11111111101001010000000000000000000000000000000000000000000000000000000000000000000000000000000000000000000000000000000000000000
00000000010101010000000000000000000000000000000000000000000000000000000000000000000000000000000000000000000000000000000000000000
00000000000010110000000000000000000000000000000000000000000000000000000000000000000000000000000000000000000000000000000000000000
11111111111100010000000000000000000000000000000000000000000000000000000000000000000000000000000000000000000000000000000000000000
00000000011101100000000000000000000000000000000000000000000000000000000000000000000000000000000000000000000000000000000000000000
11111111110111110000000000000000000000000000000000000000000000000000000000000000000000000000000000000000000000000000000000000000
00000000100000100000000000000000000000000000000000000000000000000000000000000000000000000000000000000000000000000000000000000000
11111110111011100000000000000000000000000000000000000000000000000000000000000000000000000000000000000000000000000000000000000000
00000000000010100000000000000000000000000000000000000000000000000000000000000000000000000000000000000000000000000000000000000000
00000000100100100000000000000000000000000000000000000000000000000000000000000000000000000000000000000000000000000000000000000000
00000000010101110000000000000000000000000000000000000000000000000000000000000000000000000000000000000000000000000000000000000000
11111111110011110000000000000000000000000000000000000000000000000000000000000000000000000000000000000000000000000000000000000000
00000000110110010000000000000000000000000000000000000000000000000000000000000000000000000000000000000000000000000000000000000000
00000000010000010000000000000000000000000000000000000000000000000000000000000000000000000000000000000000000000000000000000000000
00000000011011110000000000000000000000000000000000000000000000000000000000000000000000000000000000000000000000000000000000000000
