; This .COE file specifies the contents for a block memory of depth=256, and width=128.
MEMORY_INITIALIZATION_RADIX=16;
MEMORY_INITIALIZATION_VECTOR=
;
; convlayer1_bias
;
0010002cfffd005dfffc0177fffd005c,
;
; convlayer2_bias
;
fff90000000000000000000000000000,
ffa50000000000000000000000000000,
00550000000000000000000000000000,
000b0000000000000000000000000000,
fff10000000000000000000000000000,
00760000000000000000000000000000,
ffdf0000000000000000000000000000,
00820000000000000000000000000000,
feee0000000000000000000000000000,
000a0000000000000000000000000000,
00920000000000000000000000000000,
00570000000000000000000000000000,
ffcf0000000000000000000000000000,
00d90000000000000000000000000000,
00410000000000000000000000000000,
006f0000000000000000000000000000;