; This .COE file specifies the contents for a block memory of depth=256, and width=128.
MEMORY_INITIALIZATION_RADIX=16;
MEMORY_INITIALIZATION_VECTOR=
;
0055fdf000acffec0093ff25005f00b8ff3affc8ff1e00e700a9ff9cfe97008c,
ffe9fe7eff86ff31ff8a000e0002ffc3ffc2ffa0ffee0039ff7eff6dff20ff0a,
0069fe96fe9bffceff73ff8bffe20032005b003cff2dffbfff5aff4c0057ff8b,
0025fef0fff9ff4ffff400d4000cfff50022008100670067ff3cffb20107000b,
00aeff0b000afee9ff8200bdffe4ff40ffcafeff00b3000f004800c2ffbd009d,
ffb5ff30008affdbff5900bdff6cff7100f7ffb5fe9c0077ffb3fff6ffa20003,
0034fed1006dffbd001bff8cfff3ffe0fe3affc0005a001c00c20016ffa7ff98,
003aff9cff7e0090ffd2003300dcff6a0074ff57ffc0ff0efff100f9ff86ff6b,
00830068ff56003b007dfffb004dff37ffc70017ffbeffe100d1ff59001e00eb,
009afec500b900bc00cdffb7ff8a00c10077006300ad00ee008f008d002700f9,
ff31ff51ff91feccfff10171007600d7ff33004201df00beff21fdc70116013c,
fffaffe3fed1fe7d00c300d2005effdb015a007900c6fff9ff9bffc9009cffed,
004dff30004fff5000cc00a60090fef9006afff4002fff3d0003fee5ffc4ffb3,
0110013cffad007800e2004300c0fe2a0031fffbff2500d70015003b0102feda,
00c401df00aeff74014e000aff6cfeeb0011fe40000a003bff8901a700d2fec8,
fedaffd6fdf5fe4b0074ff57fef9fe050001ffd60160ff22fe23fee300adff32,
feef006cff59feca007eff4e0031ffcb007bfffb0010fee000b0ff1d0002ff1c,
fffd00a3fe45ff6d00e200fc00c5ff3600cd0053000fffd9002900cb00e70124,
ffbe01eefe44ffd5006d002500cafdfb013c010affa0ff720035fe28ff2afe54,
018b0132fed7008d00e7005500d2fe4b0043fed8000b00440078ff8f0194ffd0,
ffe401c7fed7ff3dffd800b1ff1cff4900ec0047ff4a00b7fea10082004a00d2,
ff93ff3a0030fe01008afe9dfeddff61005bff05ffbcff07ffa900090063fe8b,
000a017100fb00a200e80057ffd4ff80fffbff2f00aaff6b007200090066ffa0,
0148ff75fe30005100e7002b00cefea0001600f4019e004a0082003400acffb7,
ff9101f4feafffe7003b00280042fe5e01ed00ae00e4004000b6fee7006dff51,
0114ffe4fe12fffa008300bc007dff06ffae0076010b00e4ffa2fde8005300b9,
ffa7ffcbfec800ab0025fff900a7004d00ce016800850066ff7affb5012a0091,
007bfff2006100ab006cff14009b00aeffc3ffc2ff540041009aff51fec9ff5b,
0036012700e6008bffe7ffc9ffe1ff5cffbb0025002d00c2008800c3ffc7ff24,
011e00c1ffa600dcffb5007a00e1ff090114ffe2ff75003bffe7015dffdffeec,
ffc1007cfea3ffbd003b0129002bfdfe01a801b4004b00960065fe7600abfe43,
0068007efdcd0027fff3ff8ffff6ff89009c008800dbffcd00a7fcdd00880167,
ff23fe0cff7d0070ff8e0116004b0079ff93004900ba0089ffe8fda2ffaf01ce,
ff5dfede00e70030fd1800a4ff7d00dbff1cffe0ff6cfff5ff89ffe2fd8effdc,
ff68fed50182001ffdf2ff71ff6ffff1ffa5ffd7fd85000c006f011dfe82ff3f,
ff13ff8900920099fd61ff30fff8ff91ff80ff18feb8ff77fe30ffd9ff4aff59,
ff2800d500a7ff5eff99ffd200150012ff9b0015fea200a1ff33ffdc014b00b6,
feef000f00c9fdf4ffcdff83ff8e0066ffc3006b00c300ae008ffeca02440033,
ffae02d3ff7fff95003f0080002affac0190ff0200bafeca004400490105ffc3,
ffe302d4ff7b000401b50060ff95ffdb00deff59003cfe9d002100de0091ffcf,
ffd400b1ff5f008501770042feaefff40166000b01e00036001d02f1fff5ff10,
00b0011dff6c00e2011f003b0042ff12007f006cff870026ffff00f1006aff9d,
ffa5015b006afe6c003dff95ffbb0145ff63ffbe0027006fff1d003901810102,
ffaafd4dff2b0012ffbd0061ff49ff50ffb30057ff90ffc8ff7ffe1300dd0033,
ffc00082ff5ffea500bcff9d005d00450131ffa20106003effa3fef10103ff56,
0145ff7e0013fee200c3002c0149ffd9010dfeb5ffe800b8ff920396008400a9,
ff0aff23ff7cff56015dff1cff14fe620073ffd3fdbcffb4fef401b4ffa0ff9b,
005f0023feeaff91ffa5ff1affa900e4ffd9ff7efe4f0093feff013b0030ffa1,
00a0fff40180002300cbff68ffd701b4ff6e000eff66006bff7f009c00a3017e,
fff0ff3e000400b80037ffc00027003afea9ffc7ffc3feaf0020ff4dfe90fee4,
ff820080ffa8ffaa0034ff050090fdb8ff5bff0affd8feeaffd1ffd7fdc3fee3,
0027ff7c0078fee701a6013cffe2fef5010bffb7004100fcfff6026e00a6ff69,
00030054fd77ff0effb9ff7cff69ff330159009dfd9eff03fe96ffdf0059ff78,
ff7b0062000c0002000e004aff35fee4002800cfff1b005dfed0ff8900130041,
0035016cff47005dffbcfe1c0006ffcafede00a7ffdb003aff000059003afff5,
0058007dffe8ff81ff3e006fffaaff9b006ffedffe86febf00420034feeafe5f,
00f3018dffa600d5012effaf0028fd0300dcfff600d5ffd9007ffea3ff0efe2d,
003300c6fff5ff5effe100820010ffec019bff2f0079006ffe8100f300880026,
ff1fffd30089fe0a008900bcff5eff6b014fff72febe0003fd7c0162ff78ff81,
002c0001009dfda7ff4e0034ff6300a0ffb7ffc3021500ab004efe90fffefff0,
000cfef1013800a7ffedfecc007f0118fea60139ff2bffcb0047004d00d200c3,
ff77013d01aa00a1ff870063fff9003800caff0eff91ff75007400daff6cff10,
019b00b400bdffb90126001e00cffebbffd8fea0ffe4006400d70031016dfe6e,
fea5ff03feeafe6f0126008600400125005c0026ff5700b1fee100aa00fc007b,
0014ff060114fffefdd9000aff5f008d008500c5ffdaffb2ffdbfec600b600f8,
003800f900f201cbfff7001e00f30170ff7e00000118009a0055ffa500700137,
0059fffefe9100530089ffc000a2ff6cffc0ffb3ff3b00950084ff1bff94fff5,
00820199ff7300130005ff89ff60fe38000aff07ff99004e0001ffb10151fe86,
0033003fff2effd1ffd5ffa90058ff350057ffff00b6ff60fee301a101b8ffce,
ff06fec2ff8afe68ffdb00790025ffecffeb005b0112ff80ff42ffab008d009f,
ff7bffd0feac00d60059007fff7c0117011b001101890125fdc0fdf4000d00b9,
ff09fefc0007003700870030ff730013feeaffde0207ff93ffacffeeffb80082,
003dff8a0099014d0072ffe1ffc0ffc100b3ffd5ff9dff60014200840089ff85,
ffd0fe3200ae018ffff7ffe40113004b0076009bffdb0035ffe1ffd0fe660119,
001bffe80006015a008500a8ff95001100d30109005501580090ff5000a9ffe8,
ffe6fe810032ff84ff45ffcfff7dffee0046ffc6011a0085fff1fee000770041,
fed9fe66ff32ff77fdc4004bff800040ff3d001eff360040ff8bfe320014ffe3,
ff28ff64fedffef2ff0cfff6ffdb001a00610046fef9ff5afea3ffacfff40093,
0116002c0192002aff36ff82ff8a005bff710000fee2ff16003a011effcffffb,
0160feaf00a10100ff0a009300afffdb004f0068ffb3ff57005b00aafe79008a,
ffd5fff400db0039ffb0ff54fede00c5ff7c00c900580060ff9400330042006f,
ff63ff50ff68005300e2ffbeff770057ff1dff9d01200095ff87fe37010b001c,
ffbaffc1feedfebc0154fff9ff42ffc000c7fef70203ffebff3fff1e013affdc,
ffa80111ff08fdc200a9fffafed5ff6e0019ffa5fe56ff4cfe5b0004ff97fece,
ffb3005002760109ff92feb8004e0114fe12ffdaff21ff37ffa601f1ff890155,
ffecfe27018e00d0ff0effa8fefb00f6fdceffe3ff15001cffe801a2fe60ff3c,
fffeff2501810010fe82ff06ff89ffddff30fedbfef2ffb0ff42fff8ff85ff58,
ff5fff3e010dfec200adffb4ff83ffff001aff3a007dfed0008bffbbffd9001a,
ffcc00d9003bff35012aff02ff74fe3400fdffef014fffeb000a01280027ff89,
ffda009f002afefd008b008c00adffe800a70133fda0ff77ff060255ffe500cb,
ff88fffa0150003b0064000900fb0125ff860087ff4f000100300190fedeffb0,
ff1afe0a009dffef005ffedd0038ff0dfe4dff1afec90047006f0173fc55fe77,
ffc8ffd3002effda015effce013dff7cffa0fec8fea600e7ffda00c4fd6d0063,
011500bf0082000cffab00550074007300bd007cfe06004f00360174ff940014,
010200390000009bff35ffa00110ffb80004008dfd70ff99ffe801f80038ff40,
013efe54011301cefe09003c01040103fff60131ff72ffa40146009bfe6000ee,
0006001efefe0098006100a40016ff2001ad0105000100240087ff79007efed9,
014a014ffed3ffb7018e00b90157ff3c00c4006cffecff90010100b9ffacfedb,
00c900bbffe400c9ffcb010d0098fe8800770019feda0073ff460107006600ae,
0077ff5601e700610023001c00dc001800c8fffdff530097ffe50137000100f9,
00c4ff8b01b5008bfe2c004c008d013effc30099017b017000b6ff9600780141,
006cffb902790112ff0100e5003300c3fe28014c0364010b0168fed1ff66008b,
fffc02a9fe6f003b00a200680040fe1801aefff600dc00a60011fe800072fe26,
ff98ff72fece0060009afffa00870029009b009c004000cf00340013009f001c,
ffd4fe46ff50ffa8ff3300d1ffe0ffe1ffa800320026fefaff5600b3fe3b00ac,
ff0cfe77012affb2fdf90042ffe300adffa9004801050009ffddfd8dfe6100ad,
0001ffd2024000dcffb9ffc5fea8017ffec8012501a7003fff92fe8a00e60167,
fec4fe5300d5004aff4e0092ff88012dfe4b00440165ffb800e2ffdcffda015c,
00acffe8fff800ddffe60106011d008effe8003fffd1009800cd00baff56002d,
fff4ff310103ffbf001affe2ff9e01b8011600a700220131005dffa600660180,
ffd8002f006600b9ff4cff4f011a018a0087011dff28000500f4ff4100c50139,
ff70ff9bff05ff3fff700081007e00910075ffbe00c10033ffd0fdfa00150108,
ff49ffcaff9afea1fec90000ff78ffcc0093ffa7009e00bdff1cfe13ffdc00eb,
ff38ff74feaafeebfd2c0023ff42ffeb00abfecfff8600f6feb4ff1800e5fff9,
0095fff501500164002000dafeed0037ffa90113ff1efff0ffa0ffe300330174,
0041fdbf01c60149ff95ff81ffc700b9fe3600bfff76ff95ffc000a2fddf0004,
ffc3fe2001bf0054ffb7ff55ff4c0013feddfff00002002c0001feeafd05ff92,
00f1006aff7bff66ffccff910136fff4ffb0ffa6ff6f008100f2fbffff5600a6,
00b900a8fec9fecc017600d9ffe7ffa501a4ffdcff6f00340007fe5c004affbb,
ff7f00e4ff08ff2effb4ff8aff60ff21019cffb7fc8200a40015ff7600acff96,
ff38ff64ffe3016bffd0ff36ff78009efe1dfed90013fe94ff5800af0093feff,
feff0059004100d7ff8bfe14fefcff25fe55ffeaff2efdfa00570071fd57fea6,
0058feec015101f3004efebeffed00a5ff91ff74ff49feed01a50239fca0feb3,
0137ffa0018200caff3e003a01570063ff85ffcdfe55016301ac006afe8d0025,
012e0050005d0164fdf50066ffecfef2ffc90018fe2e00df0133ff19ff6400df,
ff8dffd30095ff96fc1800c70023feca00c4ffdafe6e000cff39ffe90020006e,
fe520040001eff9aff4bffbaff850169ff45ff1aff2300d2ff7efffa01c90118,
002cfe4200a6fe8cffaafeccffc20070006f0077007500a0004dfea20190ffc6,
000afe2100ca00a7001c001f00370159ffa200dd00cf0066ff2eff3effd30012,
ffc4fee7ffc60000fefe0098ffe10076ffe10009007100560006fe76004dffd8,
ff2f00a0000bffa8003f00a4ff3c001cff5fffd6010500e60014ff88ffa000b3,
fee0ffda0026fe160099003cff6dffdefeaefeeaffa3ffda000bff1dff76ffc2,
ff98fd6000a0ffefff520035001c00dcffc000e200c90154ff1a006e002700ef,
ffd9fda001abff6fffa80016ffaa015efed7fff000c40073fedd009aff7900b5,
ff4bfcf30187003bff44ff0a001a0160ffe2ff4d016c0036ff74feb1fe670001,
0093fedf010f00bc0077fffc0095004afeb0005d001100290126fec2ff41ffaa,
005c002a009c00f60128008d0083ffd200ebff2bffdcff9100eaffb9fff100b6,
ff94ffc3ff1afe4c0134004fff57fef500c00092fd18000cff1cffed0015ff7e,
ffa3ff0401810115ffe5001300580154fecaff2e00f5014dfffb005a00740288,
ff53fe1b029f003f003b007d00790063ff38ffe300aa0069003c0122ff3f0113,
0051fe3002e000a6ff93ff9c00a900e9ffbb003ffe37ffa800250250fdab007c,
0182ffba01c2010200d6005700b5fe8effc1febafe4901210078013effadff79,
00c1fff000330014ffc800de004aff4f00050042fdc6007901be00830093fff7,
0077007ffed9ffabff8500990110fef3000e00f7fe820015ff6b004400a6ffd1,
0038006e00eaff87ff8900fbffbe00750098fff00050ffd8ffe4ff6a006e0166,
ffda017cff55fe8affbf0040ff17000a0034ffd100ebff0cff91005c022eff2a,
ffa9019dff74feb30062010fff78ffdf000efed40242fea3ffc3011e0297ffec,
ffcd01e0ff5cff6501a1ff35fe78ff15ff65fec30156fe42006b007601dcfe63,
ffbc01cd00d8fed201fdff090062ff81ff82feb900f0fdf2001b01f4003fff56,
0099014f00bb000f02eb00f3ff8a000800dbff2e007efe7a007c01d4ff1a006a,
ff3100e4ff99ffd8ffed00f30063ff5000ddff83003f00c4ff26ffce00daff9f,
002802acffa8fee2ffefff0900ba00440031ffdf01230009ffe800cc0168ff34,
00b70203ff5efd920028ff9eff43ffb9014afed5ff9dfea2ff73011f020dffa2,
0054027dfe35fd860017feb3006dfef400b6ffa7ffceff31ff220104008bfebf,
ffd4014aff5affc90085ff3e00cdff150092ff9aff42fef4ffdb0269006eff54,
ffdb0040ffd8008101aeffd6ffe5ff93ffa4fea8fec0ff090003003bff5cffb2,
ff7dff420050fe7affcfffc2010dffd6002b00d8006b007b00d30020ff6f00c9,
00dc0095ff5a0029007e00c10143ffa3007d011c001d00e4ffec00990101ffca,
ffe30141fec9ffcdffb0fffa0038003b008e0092fe640101ff71feaa00280092,
001aff55fe80ffbbffda0035ffc4fec400c900fdff67ff9cffa5ff42ff46ffad,
000801abffad004e00ac00db0032006d00f9004dfe98001aff29005500340009,
0086005effde0065fd98ff73ff80007c0003ff23fdea000d0048ff8300400062,
0069feb5ff8200b60158001a0052ff5d006100a8fff3ffee0023ff1dff5cff9b,
00d10102ffba00b8ff9900100133ff7000520080ff8500b100bdff9400900111,
fef70074ff60ffe4fee7004bff2e007c000500d000e100c9ff91fe3b0059002e,
010dff92ff88fff201000093ffa7002100c2ffb1ffa0007b0033fe84ff9cffc0,
ff8e00aaff970077feaf000200010068007000a0ff8f009affa5ff3600bf00f9,
005f00ceff6301effe0500e4ffde010a00450113004b00f00078ff600092ffbf,
00b4ffe3006d0022002000c400470093ff0a0016ffdeff37ffde00afff77ff75,
ffe100620168ff9eff66ffbfffdaff35ff1dffecffcefeeefedfffeaff9cff2f,
ff87009700adff7f0094ff3efeecfeb7ffcffee90049fecfffd4ff8a0080ff99,
fffa0124fedaffc900a20013ff77fe9900f9ff1f01500013ffaeff15002fff38,
ffb4ffc9fee5ffebfe78ff91fefbffdbff34009f007fff67feb2fff90047ffe8,
0009fff900680032fecbff10ff980069ffabff62ff3900320015ff8dff60010b,
ff27ffe1ff4300a4ffff001efff0007eff5d00330048fed100930030ff7bffb7,
ff9e0110feddff4f00260054ff61ffeefff4ff2bffb8ff31ff69ffbd00bbfeed,
ff860105ff34ff53007bfff8ffceff1f003cfed9ff86ff6b0108ff83008efe95,
ff7a0005fe1bfe7500e2ffa8ffa9ffe5000600450025ff38001dfecb0088ff46,
00000084fe90ffd800d90094ff10011f004e00590148ff61ff58ff08ffc0ffae,
007d0052ff7700ca0061002e00df007ffff7ff8effb0ff7c009afed700c90015,
feb501100059fef7ff60ff04ffd1ffe2ff71ff520024ff2efe56ffd6ffcaffe1,
ffdbfe1a004afe8b00caff1affac003a0076ffe900750059ff040035000f002f,
ff44fe0aff9b00c30033ff690061001affdeff1a00e5ff7b000e012cff23ff93,
0070fe28ffcafffd0089ffcd003e001a0038ff93ff8affe2ffbf0172fdb6ff9b,
0119002c0067014e00a1ffee00100150ff880167fe26ff7e012c0057ff2b0084,
0069ffd4003d011d01150024fff100fbff50ffa7ff1c003e0052016c00070005,
ff46feac0011fe68ff99ff2affd0ffaeffab006b01000043000a0000fef4ff48,
ff4700fcfefbffbd00f2ffadffddff97019400790054ff68ff90ffa200dffeda,
ff69ffeaff2cff5b0043002300c700900042ffe7004efff2ff1c00e0012fff76,
0038fd99010e013dfe3600b400000017ff6c0102feeefff1ff9201e9ff0eff81,
ffaefe18022f0147fba300d7ffdd0026fefc0156fee400a7004f0032ff1cff82,
0138fea70237012fffbdfff601300101fef401810021006c017800f2fe3e0062,
0055fe5cffa0ffc90109ffadffe2ff1500b5ff760069ff97ffc3ff79017e003d,
ffc7ff2aff23ff67009c002cffee00b700ec0030016a011d0084feec02160007,
0071008600b6008affa40159ff7f00a70100ffc7fff40102ffa0019901380095,
ff91fdfa009efed9fe490069fe8f01b5ffd5ffc7ff0f003efe0ffe8b0062009a,
fe87fda30123ff92fc880077ff5600dafef9ffa001e2ff4cfebbfd370080ffab,
ff19fd1801830176fcebff82ff4dffe9fe5a005d031f0083003ffea5fe910032,
006ffe42013700ed00380144008301c3ff490056005aff81ffc000e7015501c5,
0072fe26010e0033002f005fffe100a2005d005500a400aa00a5ff71ffc700a2,
ffea008b001cffb2fed00083ff2300c6004fff8801070058ffc6000900a4010c,
ff8aff3500adfebd00bfff0fffe200d2ff3bffeb0132ff2afec8ff4d010900cf,
ff49ff22ffcbfe7a013cffb0ffbdffc60027ff8d00bfff61ff57ff17ff910070,
ff5dfed1ff52fdcb002fff13fee2006dfed3ff8a00670022ffdbfeb00032ff17,
ff89fea001440051ffb5ffa1fec601c6fec4fff100d50056ff2a006fff2c0102,
00bffd9c02000065ffc2004dff8d0226fe58ff920055001600830170ff57013b,
ffe5ff7f00d3ffcdffb1ffe8002f00d4ff0bff62ff9c007700340112fefd0075,
002dff970023ffcbffe300650066ffad00240042ffb3004e009601a20068ffd6,
00e20043ffe4ff860062000600f1009a003d0057001300b2fff800db0007ff79,
ffc5ff79ff40fef301abfff20044009b0096ffa90086ffedff2e00f5006e0032,
ffbe00150093ffe7ff0bfe2afff2011d001affe6ff0cff54ff1d01170077ffc9,
ff7dff2901f400c7ffe1fffaffdc00b6ffe2ff7f00a400ae000800b1ffd4014e,
ffd5ff20026d00cbff910049ffccffffffdd006cffa0012fff9b012afeeb007a,
016e00f701c3007700e400b000dfff45007a002cfe11004200880174feffffbb,
005900500034009a00d6000afff9fe86003d00b6fdb900c100c7011cffc00027,
0102003b00bfffba01f800540092ff31008400bffff3008c0037010cff20001d,
011900d8fed6ffaeffd400580021ff8a009200c4016bff4200ccff130128001e,
009f0315fe4800bd008a00fcffd3ff410078fff9008dff76ff71fe7e0108ffc9,
010002eefe62ffe1014200450066fe86015cff75ffe6feae00a3ffa70075ff2c,
00c300fafee6ffed0125ffff0064fe23fff8ff28ffbcff7e012b01000060ff06,
00b1ffb1ff7001cb000600bc0031001bffa8011efec4002a009f0065ffce0050,
00850068ff540121ff7b00cbff890083008b0149ff650096fff800ea00c60088,
00840122ff64ff1fffb20026ff3bfe920055ffd8ff85ffb8ff3cff8e00c2fe31,
ff830231ff86ffaa00d7001fffacfe60ff52ff49ffcbff6eff7fffac00b7fe84,
002601deff80005dffe9ff70ffa7feffff9fffc9fe0affc6ff6a0214ffddff38,
00a001360122ff37ffdfff3dff3bfecdff66ff70fddcff62005a02e0ff30fea7,
0028fe3201920047fe45ffd8ff67ffd5ff8d003dff45ffefffef00aaff3aff7d,
ffe8006b019dffa1fc5dffcaff1dffc5fef7ffd20138003e0029ffbb008f008b,
003100c2fe68fefa0097ff4f00d4fe9bffc4ff8b00f5ff9000b9fe8b00aefed2,
00ef01f7fe3dff61006500700101fe59010dfecd001dff450105ffbe013aff34,
00380147000dff5b0063ff9f0007fef30037004dfe6fffd8feec028d00760076,
ffb3ff79016d0021fe08fef6ff620144ff7fffacff42ffc2fef5018dfeb6007e,
ff75fdd70198fe8afe47ff770002016bfe59fef3ffd20076008cfdb3fee70090,
fee8ff2a0029fe5500b3ffc0fef40106ff19006901ec003dfff5fe92003500f1,
005b0008fe67fe4c00c0ffff00d7fdee01af0132007d003bffa8feaffef1ff2e,
01160131fdf0ff2c002dff90017efde701ceff9d007a001700f4fe520015ff17,
ffeb0121fe70ff6d0061ffb5002aff8200670068ff8b003200b100b2001c00dd,
0056fe940007ff06001e008dff910198003c000cfe92ffd6fefaffa5ff970178,
008dff2dff9b001a000bffcbff880038ffe2003500f00131010dfdaa0037000c,
001fff9bfe2aff37013c00da0000ff7a0085005a000bffb8004dff8affb9ff63,
ffa9004cff1bfff1ffcd0000ff82fdcb0058ffd4013d008b0010fdef0081fe6b,
00a000d1fd34fff600c3011401affea601d300350143013c00e4fc8801c8ffc7,
003100b4ff0fffeeff9000eb0135005401ed010d00310051ff57fdc0019c013d,
013f0008ff6a0016ff0c00a300ee006d00110190ff230106fffbfeb3ffb30085,
019d0102ff35ff8fff6801530071ffd1013700f2fef000d60130ff17ffe6004a,
00cbff96ff88ff88ffb20053ffb7004c0031ff80fe2200d20038004d007eff81,
ffc3ff8f007c0030ff01ffdfff2dffccff23ff47ff80fec1006b00ac0048fea8,
0121ffd3fff1ffa2ff5a00a8ff40fee90021001d01bbfffd00aafe9afecdfe80,
ff68fe0dfeaaffeeff87011d00140086003b007d01ec004fff58fd3bfe12fff5,
004afea5ff17ffe8fe7d0012ff8affd6feea002f004affaa0049ff9eff430013,
ffa9fe90006eff9cfd2b00b7ffa100a3ff74001cff63ff15016b0005ffd3ffd7,
0023ff49ffdd0026fe920069009800c4ffc1000fff1b0082fec70069ff96008e,
ffd6002f00a400b4fef20161ffaeffacfff9000c0005ff65ff7500680028ffd8,
00c7004d0168ff38ff670112003301010028009501ad001aff2affff01b10094,
0084fe290071ff8dfe93ffd400590083003cffc1fff7005eff38ff55ff90fff4,
ff3dfee30032feeefddc001d0027ff280045007afcf3001cffa8ff96ff38ffb9,
0089ffe600b8ff04fe7bffe2ff0fffe70066002dfde5ffc40002fe7dffb20000,
00c5ffca0019fe5cfea8ff44fec9ff46fffaff4d0014fec500ff003dff420058,
005dfdd9ffd2ff8aff5900bd0034013701cb011000e30175ff54ffac02150116,
002ffdd800b2010effb00117014600cb00f101cc009f01ee0048feac03400179,
00b1ff8600320058fed9fff9ffee0209ffba01570095005a0064fdc201990105,
fff600ddffef00a90074006500c90175ffc7013500ae000bff68fe1effb50113,
011f00ba00000113012800d00031015d0049004dff03002e0031017100950083,
002f009c0022ffb3ff9b004900a100c1001c0045fd8fff51ffd5fef200b40035,
ff64ff8b010affc3ffc2ffe3001601590005ff9c002d00330005ff7eff4a00cd,
0073ff3d021a0076ff41003dffb900b4ffd5ff81ff12ffb800120177feec008f,
003a024201a80027ff9fff4eff4cff3cfea6fe61fff8fe65fff90036ff87fe47,
ff20003aff85feae003eff46ffd6ff36ffc5ffa401b4fef7001a023bffe6ff1d,
ffd8009600ce0002ffc9014100d3ffa700340135003100cb002d0061ffba000a,
fffcfff2006fff3eff8dfffd0043003000baffe4fe44fffafeb400e4ffd70069,
004e00d901560133ffd3ff1afe93ffbeff5ffec2ffc3fe50fefa0017ffc0fefe,
000d02d60132015fff69feeeffe1003eff820007fed4fe7100d5026effd6fefc,
ffb001c5001eff2affc6ffe5001cff40fffafe71fea9fe30ff59019e000cff72,
ff8cff75ff1bfee2014fffddffdfff5400b5ff73ffacff92ff6f02fc0041fec9,
002200a40238003fffae0079ffd600f500b50102008b001affcaff98ff5d00f7,
011cffddffe900c9005b00b5ff5801050087ff8afe10ffda008bff5700f4ff7d,
fed0008c0068ff73ff0dff5affedffb3fedcfee8feefff5000a101b6ff580022,
000801eeffdd0071ffd3ff4afffeffc90021ff31ff73ff03005f008e0004fdf0,
ff2cffdcff5effe500fbfef00012fd97ffa8fefc00b2fe11ff08ff6d0109fdc1,
ffdc00a8fff2ffdf000cffa6002cfdd90098fe7b00610036ffea022400bcff5d,
0002ffa7ff6fff720004ffebff4e00120035ffbfffa3002400050059ff54004f,
ff3d0067001ffeccfd65ff73ff520051fff70012ff07ffacfe2f00c0ffa1ffe7,
ffa7ff7700e6ffa00004004e008f00faffc400fd003c007a0067011afe8a0115,
ff6501a00024ffde0037ff8900b2febfffedff35ffa3ffc300e200ab0104fdf3,
004501b4fef9ff9c00c0fe8e0053fe8a00aaffa1ff5fffa6ffa3ffde0235feed,
ff5f009fff5efe3a013b002a0034ff3600e60053003f0011ff82000001080062,
ff140004fe7ffe0e00d1ff27ffdb004200e3fe69ff7cfecffecfff2f0100ffd7,
fe0bfef90005fe13fea2ff72fdadff2eff86ffbdfd96ffc2ff23ff8a0071fffa,
ff56febaffdd0058fff6ffa10039ff98fe5eff90ffe6ff4600100013ff5afea4,
ff9400a40078fff20086febeffb9ffc1fffeff72ff0dffa3fff10109feb2002c,
0016ff6400d900170061ff5e00b3ff35fef30082000a00e700850012fe4f000c,
00f5ffc6ff9f005fff8101210039ffbafebc0110ffb2ffd60004fedeff85006d,
ffb6ff7cffd2fff2000bffe5001ffff9ff40fff40092ffd2005eff3000650033,
004dff24ffc90032feb90125004affd1ff0d00940104fff000c0ffcfffaaffeb,
0012001dffc40032007dffa400a9ff10005e001500a0000cffb70013fe7aff4d,
ff930058ff85ffff0011011fffccff21ff5f00810000008600eafeb10002ff33,
ff84ff9efff30080ffbc00d70022ff13ff6f0030ffe5ffec00b8ff8f00290110,
005fff0bffb6fff30011ffa0ffbaff75ff1d0074ff5e00670113fcc2ff68ffdf,
fff1007dffdfffb9008eff36ff7a000a007effb800740091005ffd8700180037,
0078ff6300c5005500df009f010effbe008e004001d000a60122ff7e00aa0041,
ffceffeaffc5ffe900810050009aff45ff9f0009fff500770016ffd8ff6000c1,
fef50046fef8fef6ff1600e9ff2a00ec00ba005b008301040039fe50008800e9,
ffe0ff50ff21ff4800170085ff7e01a5008b000101b900e5ff62fde202070084,
00e8ff6eff840022ffb90108ff9e001500780089ffe500720017ff3fffc1008e,
00cc004effd30172009b004affa4ff6fff9900a4fd64ffd401adffb7ff3bfffd,
00770076fdf5011c01a6fffbffefffdeffd6fff4fed4ffd901dcff6f000a003d,
00b3fe76ff880087007cff780076ff5efdc6ff54001b001d00500004fdfeff9f,
ff1000ac0098ffe0003e003c0059fe45ffc9ffde003eff56005200acfe43ff4e,
009801170122ffad00e2ffb100ea0062ffee00ac0061fffd0219fed00130004f,
ffa90016ff650023ff2100e100510045ff35011a000900380052ffe101090043,
fef7ffcbff36ffa2ff43ff5eff7b0049ff3fff580043002b0063ff4fffeb000c,
ffa7fefb00edff86fefdffaaff2c003efedfff680122004900bbffa1ff03feed,
008c0010ff92ff7b0009ffb7ffc8fefd00b00047ff6a001400c10027fe14ff71,
ffb50314fef00030ffe000a40059fed10056ff26fefa000200efff89014afe63,
00b60121feadff65ff6eff71005dfea70101fff0ffdbff8aff92ffb000390030,
fee50010ff0bffe5ff7affa5ff7fff93ffab0080006c0020ffb3fe4100ab001b,
ffe400b1fedd0029ffc30019ff45013fffadff330031ff360083fe45008e00c2,
00d40054ff44ff19012efecaff2cffdcffefff29feaaff70011cff070010ff65,
0074fdcafe49fff700a9ffb1ffdbfee100b6ffba009aff7e0009ff3dff01fe4c,
fffffd78fcd4004b0092006b002e006dffbf00bd002c0165ff97fd7eff5800b1,
ffb4fdebfebb0037ff6e0081ff8f0106004800d900a8ffb800f5fba300370073,
014efff0feaa01d7fe6900670008001eff740030ff02001f00a6ff0cffef00aa,
002f009bff48004d0023ffce005eff37004300d9fe3d00f2012300440058ff7f,
00b40133ff5f00afff3800c30053ff780102ffd2feeb0082ffb7ffb1007b007f,
ff40fda200e3ff31ffc4fdceff54fffbfe0f00d2ffaa0027ff7e007eff6b0034,
00e5fc2bfff4fe82ff32ff9a0021ff4cfe8c0002fe0ffff7ff74005ffdd2ff79,
0040fcfc0087005fffd4ff21007600a4ff2d0011fd25fff100550149fe6c007c,
0019fdbf01b7ff2dff48ff33ffa30127ffb50054fc4f008f00acffdeff1cfff6,
00b5fe940072fef1fe49ff9bffa50016ffd9fff7fd51004b003bff50fec30025,
ff65fff1fef6fe97fd09ff31ff2e0041ff95fef9ff7affd700ccff5bffc60007,
0064ff77fff9ffa300160088ffd0ffbefe5dffeaffcbff4f00190067fd74fefa,
001e00b5ff46012800c4ffbdffcffe3d00a1ffe9ff41ff4500510159fc94fe61,
ffcfff6a00d3011d001a007b0104ff79fe41ffd9ff8f00bf0050ffc3fed3000c,
ff83feb0fff70008ffd9ff97ffe60025fe52ffbbfff700cbffd4fd8cff500013,
006efec80024ff9200450058ff720121ff13fff2019e0143ffc5fcb400b300cc,
0025ffd8fed4ff21fea1ff6fffadff730024ffa601600078ffccfe9b008bffe7,
00c80156fef5ffc0001a00780135ff1b01bb006b000fffd100b6ffb10100fe90,
008f0001fe08ffc3011600ca0002ffee006a012801470121ffd5ff2000e1ffc2,
ffd9ff10fe60ff8dffd3ff59ffb50074006200adff6a00130016fe85007d006a,
011a00ddff210177ff8f0004013700cb00470183ff0400af00d5ff0300470053,
004affca0095006effe5ffc9005200650005fff8ffe200ff00ce00b100650072,
ffb8ff44fcf2fe5d00d100e1ffd80036fffe002afe91008afe1000bb00260053,
ff5dffe8feaafeda00a2ffb00043fdf8011f00840192ffc3003bff6d01d3ff3b,
ffc4ff6cfef0fec800900162fee8019c00ef00c0016700e7ffd6fdbf00cf014d,
ff96fd0e016100ccfdd5fffe000d00baff01001fff1fff37ffd5fdb40043ffdb,
0110011cffa8006c00d9ffe00131fefa01210038ffd0ffb2fff6fe53005fff1c,
ff340168ff39ff87015a000f00b0fe1d00fb0041feeaffa0002e02750073ff6c,
ff0d00f3ff40ff3fff77ff140045fec901050050fd8bff8bfe1901b0fffe002b,
0064fe090006ffa7ffe4ff59ffaeff6dffbeffeb008bff22ff1601650016ff5d,
ff15fc48012b0080ff530076fed901c4fe970071003fffccffddffb7ff7b0101,
fef5ff8e0174008bffdcffefffa300dffda10007ffa6007e0107ff7ffeecff6e,
ff6f004b020100430058ff88ff54fd71008bff800089fe0eff3e0061001cfe68,
fee700acfe96fec0005dff960078fea2fffc004e0036ff9eff7600a20078ff37,
fe82ffae008aff01ffb5ffce0030ff9c0020ffe3ffc7ff88fe58ffb8fff0ff98,
ff4bfd900041ff6effa3ff2f00940186ff7d0029fed0011d00120115ffc5005e,
ff2300c5012e0060ff0c0027ff53014dffb1fe95ff54ffecff4e016eff4bfff3,
00c60233000effb0fff7ffceffa1001a0030fef9ff6aff3d00f5017d00ecffcd,
ff8c0117ffe2fea300cdff3a008f015200ac001c002cff6b002f00ce0121ff98,
ffbd011600e7ffe80062ffe80091003d002700340139ffe700bffee1ff4a00a3,
001700320011feba00530063001700be001500c201c400d40155feb5ffff00ab;