; This .COE file specifies the contents for a block memory of depth=256, and width=128.
MEMORY_INITIALIZATION_RADIX=16;
MEMORY_INITIALIZATION_VECTOR=
;
; convlayer1_weights
;
0243fb2afb900061fe82fc81034fff50,
fea7fc4cff36fff00195fa960347036c,
fc84fd220384010c02e1fd6bffad0398,
023c02f5fcb200ba00aefc7f0132ff20,
ffdf007401a003e70202010d009f01ab,
0131029f042800d1001403500115001d,
034f0456026200520262fd4902aefe9d,
ffcd012904630362002d01b4ff6a037c,
026a0075021b0313035602aa02e102ae,
;
; convlayer2_weights
;
00beffe4ff54ffa9ff230039feb400d1,
feacfecb0079ff6f018dff8fff19013f,
00fbfce40151ffb701bcff4e0178009c,
ff3b01e50121015effe6fec40095ff67,
fffa00c900a1014601f2ff4001a401ec,
00e4feb80166fed0ffcf020dff7a00c9,
00d501dafff30136017b010f016afeaa,
ff57ff30005bff04ff45ff7800daff39,
fe5afe6f0003ff4f0040ffe8016dfedd,
fdddfd1d02d6013900aa03ceff9a00e7,
011bff16011effce0040002e023a00f6,
ff39fe3ffc29fe80fe95fe0c00dcfded,
feaffcd2020a02de02d30368ff680295,
0031fd4aff50ff0600b8fd7c01230129,
ff7cfdacfbc3fddcfd30ffdc0056fcd3,
00b1fecf029201750285ffe3022801e6,
0113faf9fd2effb2fe8dfe7b00c2feeb,
00affd6d00c3fe8fffae028afd86fe18,
fe42fe32fe39fcc3fd5600dafdd6fd74,
fcac0038fe9efea4fdcdfecdff25ff0a,
fdf5fc56fe65fd51fe8d0043fdf0ff34,
00ae01dbff4200cffe1d02a7fd74fe29,
00c402510026002f009dfff4fe10ff08,
01cd036effed00d2feb10154feef002f,
013501bd01b50267012401d601a60186,
02ef02cd019c026c011f00f3023500cb,
00c40246014e01c00070ffb601250088,
00b1040a014801df009b0226ff40feed,
00f504290261024900aa0102ffcb001d,
ff6a00a4032a00dc015dffc601f5fff6,
00be046600de00cd013afe7601000066,
ff57ffcdffa2ff84012bff1001570114,
fee4fde8ff12fe81ff3eff0201850021,
feb7fdfcfcb2fe70fe54ff6dff6dfeba,
fe4bfefafc65fce7fe6e00710135fe5b,
008f0240ff5aff6cfe6d00fb0002fdbc,
ffa6ff3cfe82fe18ff1affd1febdfff5,
feb8fe9afff201d70025ffb7ff8a0062,
0059fe19005701770166ff77013c00f3,
fc1ffcbeff03fe36fd9c013cfd8efda2,
fd65fae5005d0161018c00a8ff730249,
00cbfc280206011d0136fedb02110232,
fe26fe2501c30100004203d2fd7eff3c,
ff5bfc69037c025e021c0002008301b9,
01b4fb5f01e30176020600d501f801e7,
01cefdebff5bffcc0071fca3017f0050,
0130fe61010fffc70063ff36ffc100bb,
01a9ff1a0200febd00ff003eff0f005b,
00d80029fdeb012100c0fcd501920080,
006cff99005f003900c7fe7d0133ff16,
014c0347ff0cffe2ff6bff5a0059feeb,
fea8fef9fef5fe5d007b00f8ffa6ffd4,
ff9efe43fe37001b0077fea2ff6c0115,
01d40343fe010058ff5afd3c012cff36,
ff49fe6d01a2ff6aff8aff0bfef900d4,
ffc1fe0801a1ff67ff8d0091ff440050,
ff73fe2000a9016602280268015c0083,
fee7fff601c2019d00ed00660106ffb3,
fe1ffe8e00d40010016aff1001b3ff2e,
fec4fc5cfec90024fffdff46ffac0048,
ffafffce0031007b000bffd9013b0098,
fec9fe78ff8700800157ffdf005dffe4,
0122fdcd00c80170014dfe09011a0069,
01cb02c900650020fe59ffe2ff28ff82,
ffb7028f008ffdcafe6400a4fd19ffb6,
fe0e0217fecaffd1fe27fea5fdbafd9d,
030501a0ff9f020a0119fe59017700c8,
01f40321ff7a01000242ffe50006ffe1,
02bc03580032020c00c6ff2efef6ff12,
00b3ff9bfeacffc80063fdbe008a0141,
012500fbfdeeffb801ddfd0e01200137,
02d301f20010003f0034fd28015a00bc,
ff81fbcf0196ffd2ff59011000f5ffac,
ffc8fb6601dc00ad0164fe2701eb0254,
015bfc85fd1aff2efeb4fced0131ff3c,
ffcbfc390065001900c6fd53ff2b0094,
013bfb6600fd0108020bfd8a0097020b,
019efcbbff82fe61fefefe130073fe7a,
fe59fe31016900ca015afdcc016500df,
0088fd1501ea00ba025bfb9a00f40183,
017fff120095ffc801ddfb3affd60051,
01f40061014b0005fffeffcaffdf01dd,
0127fded0097ff0c00d9ffeb010a00a1,
fec9ff11018cff78fe7a0151fedbfe96,
01aaff08ffea00410098fe1101a40081,
01970258021c023200edfdbbff6f007e,
006303e101bb0207011efe5f006700a3,
01550058fe78fe97ffa5fddd0008ff14,
009800fcff03fe03fff5fb7d004cfe85,
0060024effacffe50076fcbe018e012a,
ffe6fe2e0029ffe000e8fe35010f011e,
02b1fe80fecf01ba0162fd7301570193,
01b700e8fd3f0203ffb2fce2025e00cf,
fd78fe07fd70fda9fce3ff33fd560037,
fdb0fcb20001ffcf004dfde6002a02d4,
0283ffcbff1e02ed01c3fcd600b402f7,
ffce0154fdcffe71fe4a0172fcf4fc8b,
fdeefc02ff58fe9d009c0003fdac00bf,
0100fc23011e01480159ff2301a802a7,
00c10139003701b00191fdc30056ffbc,
ff8d024b0137000600d6ff33ff1e003e,
00e200ccfed9ff43ff43009c004efed9,
00a60055feedff0c0024fdef0128fee3,
0022006afde5ffc9ffacfbfd0086ff8a,
018f0158ff85ffbeffe6fd68016cfef3,
febb00cdfe0e019a01a2fee5017eff19,
00590237fe1200650138fd810067012f,
0221046300b402210010fcd401b40060,
ff25023ffe96fe9bff62fcf5ff75ff61,
ffeb00ee0010fec7feb7ff4dfec5fe97,
00c80160022bfffe00e9fff100d900cd,
00a3043001e70153005500adff31fff1,
ffea029d010f012000a60115feacff56,
001400090139ff44018bff4f016b011f,
0063048301f500530114fea001020167,
ffc101ecffcf0150007401090007006e,
018bfff5ff2bfec4fee2012ffec50069,
00f7fd20fe36fd8effb2015e01f30054,
fff5fcbcfd1aff1cfce301c2fe9aff1e,
fe0c0166ffd7fe20fe730379fd1aff4e,
00a0fc6bfd55fcbbfdaf02aeff39fe2e,
fe5ffeeb00ffffbd000901defe2d0095,
00bb010f00c8007a00fb01cdff2a0005,
fdc6fc65ff000068fda802c3fde0001c,
ff31fe0a01e500fd02260330008e022a,
00f3fefe021802bf014a01a300060251,
006cfdaf00bf020a00a7ff3300d4003c,
00e7002dfd62fceffd8bff2100c1ffaa,
ff84fdd9fdd6fe71ff75027efe060093,
00dcfcdc00fa019e01dd0127020a01c2,
021bffd3fccffe6ffd69fddeff90fed6,
ff3000f200d7ff66fe030209fe0aff06,
fff7fb8802b601e5023bfe96026b0243,
00de0062ffa1029cfedafc49012c005b,
013d00f200b7ffcdfe7700fbfebcff03,
00180161ff5701630116ff7800f8fef0,
020a018400620088fe0d006bfff8fddc,
00e90272fed2fdcdfedffec9fd55fe4c,
0050005fff1700f60064fee2003fffb1,
024d02efffc800310034fcb500d40085,
0203026100e10193ff70fe1100a7fe5a,
00be0020fea5ffdd0112feb30087ff88,
00db042cff94001100e6fcbf01ae0013,
02d00394016d015bffe9fdf4018f0177;