00000010010000111111101100101010111110111001000000000000011000011111111010000010111111001000000100000011010011111111111101010000
11111110101001111111110001001100111111110011011011111111111100000000000110010101111110101001011000000011010001110000001101101100
11111100100001001111110100100010000000111000010000000001000011000000001011100001111111010110101111111111101011010000001110011000
00000010001111000000001011110101111111001011001000000000101110100000000010101110111111000111111100000001001100101111111100100000
11111111110111110000000001110100000000011010000000000011111001110000001000000010000000010000110100000000100111110000000110101011
00000001001100010000001010011111000001000010100000000000110100010000000000010100000000110101000000000001000101010000000000011101
00000011010011110000010001010110000000100110001000000000010100100000001001100010111111010100100100000010101011101111111010011101
11111111110011010000000100101001000001000110001100000011011000100000000000101101000000011011010011111111011010100000001101111100
00000010011010100000000001110101000000100001101100000011000100110000001101010110000000101010101000000010111000010000001010101110
00000000101111101111111111100100111111110101010011111111101010011111111100100011000000000011100111111110101101000000000011010001
11111110101011001111111011001011000000000111100111111111011011110000000110001101111111111000111111111111000110010000000100111111
00000000111110111111110011100100000000010101000111111111101101110000000110111100111111110100111000000001011110000000000010011100
11111111001110110000000111100101000000010010000100000001010111101111111111100110111111101100010000000000100101011111111101100111
11111111111110100000000011001001000000001010000100000001010001100000000111110010111111110100000000000001101001000000000111101100
00000000111001001111111010111000000000010110011011111110110100001111111111001111000000100000110111111111011110100000000011001001
00000000110101010000000111011010111111111111001100000001001101100000000101111011000000010000111100000001011010101111111010101010
11111111010101111111111100110000000000000101101111111111000001001111111101000101111111110111100000000000110110101111111100111001
11111110010110101111111001101111000000000000001111111111010011110000000001000000111111111110100000000001011011011111111011011101
11111101110111011111110100011101000000101101011000000001001110010000000010101010000000111100111011111111100110100000000011100111
00000001000110111111111100010110000000010001111011111111110011100000000001000000000000000010111000000010001110100000000011110110
11111111001110011111111000111111111111000010100111111110100000001111111010010101111111100000110000000000110111001111110111101101
11111110101011111111110011010010000000100000101000000010110111100000001011010011000000110110100011111111011010000000001010010101
00000000001100011111110101001010111111110101000011111111000001100000000010111000111111010111110000000001001000110000000100101001
11111111011111001111110110101100111110111100001111111101110111001111110100110000111111111101110000000000010101101111110011010011
00000000101100011111111011001111000000101001001000000001011101010000001010000101111111111110001100000010001010000000000111100110
00000001000100111111101011111001111111010010111011111111101100101111111010001101111111100111101100000000110000101111111011101011
00000000101011111111110101101101000000001100001111111110100011111111111110101110000000101000101011111101100001101111111000011000
11111110010000101111111000110010111111100011100111111100110000111111110101010110000000001101101011111101110101101111110101110100
11111100101011000000000000111000111111101001111011111110101001001111110111001101111111101100110111111111001001011111111100001010
11111101111101011111110001010110111111100110010111111101010100011111111010001101000000000100001111111101111100001111111100110100
00000000101011100000000111011011111111110100001000000000110011111111111000011101000000101010011111111101011101001111111000101001
00000000110001000000001001010001000000000010011000000000001011110000000010011101111111111111010011111110000100001111111100001000
00000001110011010000001101101110111111111110110100000000110100101111111010110001000000010101010011111110111011110000000000101111
00000001001101010000000110111101000000011011010100000010011001110000000100100100000000011101011000000001101001100000000110000110
00000010111011110000001011001101000000011001110000000010011011000000000100011111000000001111001100000010001101010000000011001011
00000000110001000000001001000110000000010100111000000001110000000000000001110000111111111011011000000001001001010000000010001000
00000000101100010000010000001010000000010100100000000001110111110000000010011011000000100010011011111111010000001111111011101101
00000000111101010000010000101001000000100110000100000010010010010000000010101010000000010000001011111111110010110000000000011101
11111111011010100000000010100100000000110010101000000000110111000000000101011101111111111100011000000001111101011111111111110110
00000000101111100000010001100110000000001101111000000000110011010000000100111010111111100111011000000001000000000000000001100110
11111111010101111111111111001101111111111010001011111111100001000000000100101011111111110001000000000001010101110000000100010100
11111110111001001111110111101000111111110001001011111110100000011111111100111110111111110000001000000001100001010000000000100001
11111110101101111111110111111100111111001011001011111110011100001111111001010100111111110110110111111111011011011111111010111010
11111110010010111111111011111010111111000110010111111100111001111111111001101110000000000111000100000001001101011111111001011011
00000000100011110000001001000000111111110101101011111111011011001111111001101101000000001111101100000000000000101111110110111100
11111111101001101111111100111100111111101000001011111110000110001111111100011010111111111101000111111110101111011111111111110101
11111110101110001111111010011010111111111111001000000001110101110000000000100101111111111011011111111111100010100000000001100010
00000000010110011111111000011001000000000101011100000001011101110000000101100110111111110111011100000001001111000000000011110011
11111100000111111111110010111110111111110000001111111110001101101111110110011100000000010011110011111101100011101111110110100010
11111101011001011111101011100101000000000101110100000001011000010000000110001100000000001010100011111111011100110000001001001001
00000000110010111111110000101000000000100000011000000001000111010000000100110110111111101101101100000010000100010000001000110010
11111110001001101111111000100101000000011100001100000001000000000000000001000010000000111101001011111101011111101111111100111100
11111111010110111111110001101001000000110111110000000010010111100000001000011100000000000000001000000000100000110000000110111001
00000001101101001111101101011111000000011110001100000001011101100000001000000110000000001101010100000001111110000000000111100111
00000001110011101111110111101011111111110101101111111111110011000000000001110001111111001010001100000001011111110000000001010000
00000001001100001111111001100001000000010000111111111111110001110000000001100011111111110011011011111111110000010000000010111011
00000001101010011111111100011010000000100000000011111110101111010000000011111111000000000011111011111111000011110000000001011011
00000000110110000000000000101001111111011110101100000001001000010000000011000000111111001101010100000001100100100000000010000000
00000000011011001111111110011001000000000101111100000000001110010000000011000111111111100111110100000001001100111111111100010110
00000001010011000000001101000111111111110000110011111111111000101111111101101011111111110101101000000000010110011111111011101011
11111110101010001111111011111001111111101111010111111110010111010000000001111011000000001111100011111111101001101111111111010100
11111111100111101111111001000011111111100011011100000000000110110000000001110111111111101010001011111111011011000000000100010101
00000001110101000000001101000011111111100000000100000000010110001111111101011010111111010011110000000001001011001111111100110110
11111111010010011111111001101101000000011010001011111111011010101111111110001010111111110000101111111110111110010000000011010100
11111111110000011111111000001000000000011010000111111111011001111111111110001101000000001001000111111111010001000000000001010000
11111111011100111111111000100000000000001010100100000001011001100000001000101000000000100110100000000001010111000000000010000011
11111110111001111111111111110110000000011100001000000001100111010000000011101101000000000110011000000001000001101111111110110011
11111110000111111111111010001110000000001101010000000000000100000000000101101010111111110001000000000001101100111111111100101110
11111110110001001111110001011100111111101100100100000000001001001111111111111101111111110100011011111111101011000000000001001000
11111111101011111111111111001110000000000011000100000000011110110000000000001011111111111101100100000001001110110000000010011000
11111110110010011111111001111000111111111000011100000000100000000000000101010111111111111101111100000000010111011111111111100100
00000001001000101111110111001101000000001100100000000001011100000000000101001101111111100000100100000001000110100000000001101001
00000001110010110000001011001001000000000110010100000000001000001111111001011001111111111110001011111111001010001111111110000010
11111111101101110000001010001111000000001000111111111101110010101111111001100100000000001010010011111101000110011111111110110110
11111110000011100000001000010111111111101100101011111111110100011111111000100111111111101010010111111101101110101111110110011101
00000011000001010000000110100000111111111001111100000010000010100000000100011001111111100101100100000001011101110000000011001000
00000001111101000000001100100001111111110111101000000001000000000000001001000010111111111110010100000000000001101111111111100001
00000010101111000000001101011000000000000011001000000010000011000000000011000110111111110010111011111110111101101111111100010010
00000000101100111111111110011011111111101010110011111111110010000000000001100011111111011011111000000000100010100000000101000001
00000001001001010000000011111011111111011110111011111111101110000000000111011101111111010000111000000001001000000000000100110111
00000010110100110000000111110010000000000001000000000000001111110000000000110100111111010010100000000001010110100000000010111100
11111111100000011111101111001111000000011001011011111111110100101111111101011001000000010001000000000000111101011111111110101100
11111111110010001111101101100110000000011101110000000000101011010000000101100100111111100010011100000001111010110000001001010100
00000001010110111111110010000101111111010001101011111111001011101111111010110100111111001110110100000001001100011111111100111100
11111111110010111111110000111001000000000110010100000000000110010000000011000110111111010101001111111111001010110000000010010100
00000001001110111111101101100110000000001111110100000001000010000000001000001011111111011000101000000000100101110000001000001011
00000001100111101111110010111011111111111000001011111110011000011111111011111110111111100001001100000000011100111111111001111010
11111110010110011111111000110001000000010110100100000000110010100000000101011010111111011100110000000001011001010000000011011111
00000000100010001111110100010101000000011110101000000000101110100000001001011011111110111001101000000000111101000000000110000011
00000001011111111111111100010010000000001001010111111111110010000000000111011101111110110011101011111111110101100000000001010001
00000001111101000000000001100001000000010100101100000000000001011111111111111110111111111100101011111111110111110000000111011101
00000001001001111111110111101101000000001001011111111111000011000000000011011001111111111110101100000001000010100000000010100001
11111110110010011111111100010001000000011000110011111111011110001111111001111010000000010101000111111110110110111111111010010110
00000001101010101111111100001000111111111110101000000000010000010000000010011000111111100001000100000001101001000000000010000001
00000001100101110000001001011000000000100001110000000010001100100000000011101101111111011011101111111111011011110000000001111110
00000000011000110000001111100001000000011011101100000010000001110000000100011110111111100101111100000000011001110000000010100011
00000001010101010000000001011000111111100111100011111110100101111111111110100101111111011101110100000000000010001111111100010100
00000000100110000000000011111100111111110000001111111110000000111111111111110101111110110111110100000000010011001111111010000101
00000000011000000000001001001110111111111010110011111111111001010000000001110110111111001011111000000001100011100000000100101010
11111111111001101111111000101110000000000010100111111111111000000000000011101000111111100011010100000001000011110000000100011110
00000010101100011111111010000000111111101100111100000001101110100000000101100010111111010111001100000001010101110000000110010011
00000001101101110000000011101000111111010011111100000010000000111111111110110010111111001110001000000010010111100000000011001111
11111101011110001111111000000111111111010111000011111101101010011111110011100011111111110011001111111101010101100000000000110111
11111101101100001111110010110010000000000000000111111111110011110000000001001101111111011110011000000000001010100000001011010100
00000010100000111111111111001011111111110001111000000010111011010000000111000011111111001101011000000000101101000000001011110111
11111111110011100000000101010100111111011100111111111110011100011111111001001010000000010111001011111100111101001111110010001011
11111101111011101111110000000010111111110101100011111110100111010000000010011100000000000000001111111101101011000000000010111111
00000001000000001111110000100011000000010001111000000001010010000000000101011001111111110010001100000001101010000000001010100111
00000000110000010000000100111001000000000011011100000001101100000000000110010001111111011100001100000000010101101111111110111100
11111111100011010000001001001011000000010011011100000000000001100000000011010110111111110011001111111111000111100000000000111110
00000000111000100000000011001100111111101101100111111111010000111111111101000011000000001001110000000000010011101111111011011001
00000000101001100000000001010101111111101110110111111111000011000000000000100100111111011110111100000001001010001111111011100011
00000000001000100000000001101010111111011110010111111111110010011111111110101100111110111111110100000000100001101111111110001010
00000001100011110000000101011000111111111000010111111111101111101111111111100110111111010110100000000001011011001111111011110011
11111110101110110000000011001101111111100000111000000001100110100000000110100010111111101110010100000001011111101111111100011001
00000000010110010000001000110111111111100001001000000000011001010000000100111000111111011000000100000000011001110000000100101111
00000010001000010000010001100011000000001011010000000010001000010000000000010000111111001101010000000001101101000000000001100000
11111111001001010000001000111111111111101001011011111110100110111111111101100010111111001111010111111111011101011111111101100001
11111111111010110000000011101110000000000001000011111110110001111111111010110111111111110100110111111110110001011111111010010111
00000000110010000000000101100000000000100010101111111111111111100000000011101001111111111111000100000000110110010000000011001101
00000000101000110000010000110000000000011110011100000001010100110000000001010101000000001010110111111111001100011111111111110001
11111111111010100000001010011101000000010000111100000001001000000000000010100110000000010001010111111110101011001111111101010110
00000000000101000000000000001001000000010011100111111111010001000000000110001011111111110100111100000001011010110000000100011111
00000000011000110000010010000011000000011111010100000000010100110000000100010100111111101010000000000001000000100000000101100111
11111111110000010000000111101100111111111100111100000001010100000000000001110100000000010000100100000000000001110000000001101110
00000001100010111111111111110101111111110010101111111110110001001111111011100010000000010010111111111110110001010000000001101001
00000000111101111111110100100000111111100011011011111101100011101111111110110010000000010101111000000001111100110000000001010100
11111111111101011111110010111100111111010001101011111111000111001111110011100011000000011100001011111110100110101111111100011110
11111110000011000000000101100110111111111101011111111110001000001111111001110011000000110111100111111101000110101111111101001110
00000000101000001111110001101011111111010101010111111100101110111111110110101111000000101010111011111111001110011111111000101110
11111110010111111111111011101011000000001111111111111111101111010000000000001001000000011101111011111110001011010000000010010101
00000000101110110000000100001111000000001100100000000000011110100000000011111011000000011100110111111111001010100000000000000101
11111101110001101111110001100101111111110000000000000000011010001111110110101000000000101100001111111101111000000000000000011100
11111111001100011111111000001010000000011110010100000000111111010000001000100110000000110011000000000000100011100000001000101010
00000000111100111111111011111110000000100001100000000010101111110000000101001010000000011010001100000000000001100000001001010001
00000000011011001111110110101111000000001011111100000010000010100000000010100111111111110011001100000000110101000000000000111100
00000000111001110000000000101101111111010110001011111100111011111111110110001011111111110010000100000000110000011111111110101010
11111111100001001111110111011001111111011101011011111110011100011111111101110101000000100111111011111110000001100000000010010011
00000000110111001111110011011100000000001111101000000001100111100000000111011101000000010010011100000010000010100000000111000010
00000010000110111111111111010011111111001100111111111110011011111111110101101001111111011101111011111111100100001111111011010110
11111111001100000000000011110010000000001101011111111111011001101111111000000011000000100000100111111110000010101111111100000110
11111111111101111111101110001000000000101011011000000001111001010000001000111011111111101001011000000010011010110000001001000011
00000000110111100000000001100010111111111010000100000010100111001111111011011010111111000100100100000001001011000000000001011011
00000001001111010000000011110010000000001011011111111111110011011111111001110111000000001111101111111110101111001111111100000011
00000000000110000000000101100001111111110101011100000001011000110000000100010110111111110111100000000000111110001111111011110000
00000010000010100000000110000100000000000110001000000000100010001111111000001101000000000110101111111111111110001111110111011100
00000000111010010000001001110010111111101101001011111101110011011111111011011111111111101100100111111101010101011111111001001100
00000000010100000000000001011111111111110001011100000000111101100000000001100100111111101110001000000000001111111111111110110001
00000010010011010000001011101111111111111100100000000000001100010000000000110100111111001011010100000000110101000000000010000101
00000010000000110000001001100001000000001110000100000001100100111111111101110000111111100001000100000000101001111111111001011010
00000000101111100000000000100000111111101010010111111111110111010000000100010010111111101011001100000000100001111111111110001000
00000000110110110000010000101100111111111001010000000000000100010000000011100110111111001011111100000001101011100000000000010011
00000010110100000000001110010100000000010110110100000001010110111111111111101001111111011111010000000001100011110000000101110111
